transmission</w>
organization</w>
coronavirus</w>
respiratory</w>
development</w>
information</w>
individuals</w>
significant</w>
associated</w>
infections</w>
infectious</w>
population</w>
healthcare</w>
usepackage</w>
identified</w>
management</w>
infection</w>
including</w>
countries</w>
treatment</w>
mortality</w>
worldwide</w>
influenza</w>
important</w>
different</w>
pneumonia</w>
confirmed</w>
increased</w>
potential</w>
emergency</w>
effective</w>
patients</w>
pandemic</w>
syndrome</w>
clinical</w>
reported</w>
ological</w>
diseases</w>
outbreak</w>
national</w>
infected</w>
symptoms</w>
research</w>
response</w>
character
ications</w>
children</w>
december</w>
specific</w>
hospital</w>
proteins</w>
economic</w>
analysis</w>
although</w>
measures</w>
epidemic</w>
positive</w>
disease</w>
viruses</w>
ication</w>
however</w>
between</w>
million</w>
patient</w>
protein</w>
ability</w>
related</w>
studies</w>
medical</w>
through</w>
control</w>
pathogen
several</w>
challeng
factors</w>
ization</w>
against</w>
consider
systems</w>
vaccine</w>
ination</w>
effects</w>
present</w>
therapy</w>
ational</w>
ulation</w>
individu
signific
emergenc
influenz
health</w>
ations</w>
severe</w>
during</w>
spread</w>
people</w>
public</w>
global</w>
caused</w>
develop
deaths</w>
social</w>
system</w>
number</w>
tional</w>
immune</w>
mental</w>
inflamm
impact</w>
common</w>
cancer</w>
recent</w>
environ
strateg
family</w>
diagnos
within</w>
ention</w>
continu
ically</w>
increas
ential</w>
outbrea
ission</w>
emergen
infecti
symptom
pneumon
though</w>
countri
ackage</w>
covid</w>
ation</w>
virus</w>
which</w>
tions</w>
acute</w>
cases</w>
these</w>
viral</w>
their</w>
world</w>
other</w>
human</w>
ative</w>
ently</w>
first</w>
china</w>
there</w>
ating</w>
based</w>
ology</w>
ities</w>
study</w>
atory</w>
cells</w>
among</w>
novel</w>
produc
tical</w>
respon
commun
partic
after</w>
known</w>
ement</w>
since</w>
cause</w>
ality</w>
sible</w>
includ
years</w>
ences</w>
using</w>
about</w>
ments</w>
ented</w>
hospit
while</w>
wuhan</w>
ading</w>
march</w>
early</w>
being</w>
protec
mechan
ately</w>
therap
death</w>
experi
major</w>
those</w>
ature</w>
servic
identi
suppor
corona
concer
large</w>
nosis</w>
comes</w>
follow
descri
ility</w>
differ
transm
ental</w>
contro
associ
ember</w>
import
econom
resear
health
inform
contin
respir
syndro
confir
childr
indivi
with</w>
tion</w>
that</w>
have</w>
from</w>
sars</w>
this</w>
ated</w>
been</w>
ence</w>
ally</w>
inter
able</w>
ting</w>
were</w>
tive</w>
more</w>
ical</w>
ents</w>
such</w>
sion</w>
ding</w>
ance</w>
ment</w>
ular</w>
ates</w>
most</w>
care</w>
also</w>
than</w>
risk</w>
appro
high</w>
many</w>
resul
over</w>
ized</w>
ines</w>
under
gener
time</w>
data</w>
ound</w>
sive</w>
atic</w>
ited</w>
immun
used</w>
struc
compl
very</w>
well</w>
multi
ties</w>
affec
ther</w>
king</w>
only</w>
they</w>
ress</w>
cell</w>
onal</w>
into</w>
chang
come</w>
ving</w>
some</w>
model
ared</w>
case</w>
ural</w>
ness</w>
repor
detec
ning</w>
techn
fore</w>
vity</w>
life</w>
tics</w>
vely</w>
micro
both</w>
ants</w>
revie
work</w>
emerg
ation
ross</w>
ings</w>
when</w>
venti
stand
organ
sity</w>
rate</w>
arly</w>
ture</w>
incre
host</w>
mers</w>
medic
like</w>
role</w>
will</w>
condi
type</w>
trans
onic</w>
cardi
initi
there
provi
metho
impro
uary</w>
effec
reat</w>
speci
avail
reduc
ards</w>
invol
molec
inal</w>
face</w>
ages</w>
psych
acter
emic</w>
ever</w>
ases</w>
analy
sever
consi
dies</w>
ures</w>
prote
wide</w>
fied</w>
ince</w>
infec
mptom
influ
treat
velop
ased</w>
manag
lion</w>
uses</w>
pneum
read</w>
world
ific</w>
aths</w>
envir
chall
ween</w>
again
the</w>
and</w>
ing</w>
for</w>
are</w>
cov</w>
ent</w>
has</w>
ate</w>
ted</w>
ers</w>
was</w>
ine</w>
ity</w>
ies</w>
tic</w>
ous</w>
comp
anti
pres
ary</w>
can</w>
one</w>
cont
age</w>
all</w>
not</w>
der</w>
ure</w>
its</w>
ase</w>
ess</w>
sis</w>
use</w>
ons</w>
ain</w>
est</w>
ial</w>
spec
acti
ors</w>
who</w>
als</w>
may</w>
ved</w>
ast</w>
ant</w>
prev
new</w>
ely</w>
dist
enti
high
vari
uld</w>
red</w>
requ
ans</w>
sequ
cent
but</w>
curr
ter</w>
ong</w>
our</w>
due</w>
ays</w>
test
proc
comm
rna</w>
act</w>
low</w>
ety</w>
func
caus
tran
ses</w>
coun
vacc
ght</w>
path
medi
ome</w>
res</w>
tor</w>
ics</w>
pers
ves</w>
les</w>
ach</w>
two</w>
had</w>
ace</w>
olog
thro
tion
ory</w>
show
resi
ung</w>
non</w>
ere</w>
tal</w>
ten</w>
trac
regi
sed</w>
reco
ree</w>
stud
sign
reat
addi
decl
ard</w>
phys
over
clas
led</w>
impl
main
how</w>
vel</w>
end</w>
ism</w>
anim
work
targ
med</w>
evid
ort</w>
ded</w>
soci
rang
ade</w>
ins</w>
den</w>
peri
per</w>
des</w>
pand
epid
ver</w>
ther
diag
fact
syst
econ
diff
pati
indi
ute</w>
glob
ose</w>
cell
ems</w>
clin
out</w>
spit
ese</w>
ble</w>
ile</w>
ugh</w>
chin
ogen
larg
meas
resp
ily</w>
posi
ill</w>
ost</w>
chil
ars</w>
ich</w>
ific
ber</w>
brea
sear
publ
ateg
clud
char
dise
canc
mort
neum
han</w>
ath</w>
infl
with
heal
covi
peop
sych
emer
worl
usep
ffec
of</w>
in</w>
to</w>
ed</w>
al</w>
es</w>
is</w>
as</w>
on</w>
an</w>
or</w>
by</w>
pro
er</w>
et</w>
en</w>
ly</w>
ts</w>
con
ic</w>
it</w>
be</w>
at</w>
ver
le</w>
ter
per
ent
str
gen
pre
us</w>
for
ar</w>
rec
par
sur
th</w>
ain
se</w>
ce</w>
ds</w>
ten
ve</w>
ia</w>
cor
ser
dis
id</w>
ess
de</w>
ay</w>
res
anc
min
pos
od</w>
we</w>
ing
est
mon
gro
ati
sub
rap
duc
ks</w>
pol
enc
fin
tim
pri
tro
end
sti
ill
and
loc
ms</w>
com
cri
reg
tic
te</w>
dic
col
ici
man
mil
um</w>
out
ail
vir
amp
tri
fac
por
ach
mar
dec
der
cle
our
ty</w>
ant
up</w>
ke</w>
ad</w>
acc
inc
em</w>
iti
tra
ut</w>
lim
rel
ist
dem
eng
eff
sel
no</w>
fer
ful
il</w>
sch
mor
all
rib
sen
st</w>
imp
bin
alu
the
sec
inv
ang
mat
inf
bet
del
cap
cur
typ
cul
ol</w>
ch</w>
cep
wor
ath
nam
sci
oun
hum
wn</w>
ns</w>
low
lab
dep
dom
bec
log
vas
shi
ric
jec
mem
tho
car
ong
are
lec
fur
doc
el</w>
uni
lat
dro
exp
ge</w>
bio
clo
bro
vel
nec
cer
can
mas
ae</w>
air
ris
chr
ord
her
ali
sup
vid
mul
ss</w>
me</w>
ir</w>
kno
na</w>
orm
pop
arg
so</w>
syn
enz
fun
num
ack
org
amm
pot
ort
sep
fol
pub
ari
vie
ona
vic
tom
mic
wel
lif
dat
aly
fam
glo
maj
dur
stu
rea
cel
han
des
fir
mun
med
tec
nos
oci
mol
hig
mec
fro
how
a</w>
s</w>
e</w>
in
re
t</w>
st
y</w>
al
er
ar
ac
or
as
en
di
si
ex
co
an
th
at
em
on
un
el
ic
ad
it
le
d</w>
ti
ol
de
is
ul
li
ur
am
ne
m</w>
id
vi
ch
op
ap
su
ro
pl
sp
se
es
qu
ag
us
tr
om
ab
n</w>
g</w>
ut
be
oc
k</w>
i</w>
ri
to
il
o</w>
mo
ec
lo
v</w>
ev
f</w>
ep
im
he
ph
bi
l</w>
hi
w</w>
ma
p</w>
ho
bo
ir
br
um
sh
po
sc
h</w>
os
fe
me
gr
b</w>
c</w>
dr
do
wh
pr
tu
no
ug
fi
hy
af
og
up
go
r</w>
pe
u</w>
du
ha
cl
ob
we
te
ve
mp
ff
au
eu
wi
gn
ig
iz
ed
x</w>
fr
cy
ip
ly
bl
ta
lu
gu
if
av
ke
of
sm
ra
gg
ub
ei
gi
cr
ge
ye
ca
nu
mi
so
gh
fo
ay
ud
sy
uc
ys
yp
eg
tw
hn
wu
s
t
e
b
p
m
c
l
i
f
d
o
h
g
n
a
r
w
u
v
y
</w>
k
z
j
x
q
